0000
0000
0000
0000
0100
0000
0000
0000
0000
001c
001c
001c
001c
001c
001c
001c
001c
001c
ffe4
ffe4
ffe4
ffe4
00e4
ffe4
ffe4
ffe4
ffe4
0000
001a
0033
001a
0033
004d
0033
004d
0066
0000
0000
0000
0000
0100
0000
0000
0000
0000
001c
001c
001c
001c
001c
001c
001c
001c
001c
ffe4
ffe4
ffe4
ffe4
00e4
ffe4
ffe4
ffe4
ffe4
0000
001a
0033
001a
0033
004d
0033
004d
0066
0000
0000
0000
0000
0100
0000
0000
0000
0000
001c
001c
001c
001c
001c
001c
001c
001c
001c
ffe4
ffe4
ffe4
ffe4
00e4
ffe4
ffe4
ffe4
ffe4
0000
001a
0033
001a
0033
004d
0033
004d
0066
0000
0000
0000
0000
0100
0000
0000
0000
0000
001c
001c
001c
001c
001c
001c
001c
001c
001c
ffe4
ffe4
ffe4
ffe4
00e4
ffe4
ffe4
ffe4
ffe4
0000
001a
0033
001a
0033
004d
0033
004d
0066
